23
be
84
e1
6c
d6
ae
52
49
f1
f1
bb
e9
eb
b3
a6
3c
87
0c
3e
99
24
5e
0d
06
b7
47
de
b3
12
4d
c8
bb
8b
a6
1f
03
5a
7d
09
25
1f
5d
d4
cb
fc
96
f5
3b
13
0d
89
0a
1c
db
ae
20
9a
50
ee
40
78
36
fd
